//
// Created by matth on 4/23/2022.
//

#include "model.h"

alignas(8) const unsigned char sin_model[] = {
        0x1c, 0x00, 0x00, 0x00, 0x54, 0x46, 0x4c, 0x33, 0x14, 0x00, 0x20, 0x00,
        0x04, 0x00, 0x08, 0x00, 0x0c, 0x00, 0x10, 0x00, 0x14, 0x00, 0x00, 0x00,
        0x18, 0x00, 0x1c, 0x00, 0x14, 0x00, 0x00, 0x00, 0x03, 0x00, 0x00, 0x00,
        0x18, 0x00, 0x00, 0x00, 0x24, 0x00, 0x00, 0x00, 0x34, 0x01, 0x00, 0x00,
        0x24, 0x00, 0x00, 0x00, 0xdc, 0x00, 0x00, 0x00, 0x58, 0x00, 0x00, 0x00,
        0x03, 0x00, 0x00, 0x00, 0x1c, 0x05, 0x00, 0x00, 0x34, 0x04, 0x00, 0x00,
        0xe4, 0x01, 0x00, 0x00, 0x01, 0x00, 0x00, 0x00, 0x34, 0x01, 0x00, 0x00,
        0x0e, 0x00, 0x00, 0x00, 0x8c, 0x0b, 0x00, 0x00, 0x88, 0x0b, 0x00, 0x00,
        0x68, 0x0a, 0x00, 0x00, 0x80, 0x09, 0x00, 0x00, 0x08, 0x07, 0x00, 0x00,
        0x64, 0x06, 0x00, 0x00, 0xe0, 0x05, 0x00, 0x00, 0x78, 0x05, 0x00, 0x00,
        0x6c, 0x0b, 0x00, 0x00, 0x68, 0x0b, 0x00, 0x00, 0x64, 0x0b, 0x00, 0x00,
        0x60, 0x0b, 0x00, 0x00, 0x5c, 0x0b, 0x00, 0x00, 0xb8, 0x00, 0x00, 0x00,
        0x01, 0x00, 0x00, 0x00, 0x10, 0x00, 0x00, 0x00, 0x00, 0x00, 0x0a, 0x00,
        0x10, 0x00, 0x0c, 0x00, 0x08, 0x00, 0x04, 0x00, 0x0a, 0x00, 0x00, 0x00,
        0x0c, 0x00, 0x00, 0x00, 0x1c, 0x00, 0x00, 0x00, 0x20, 0x00, 0x00, 0x00,
        0x0f, 0x00, 0x00, 0x00, 0x73, 0x65, 0x72, 0x76, 0x69, 0x6e, 0x67, 0x5f,
        0x64, 0x65, 0x66, 0x61, 0x75, 0x6c, 0x74, 0x00, 0x01, 0x00, 0x00, 0x00,
        0x14, 0x00, 0x00, 0x00, 0x01, 0x00, 0x00, 0x00, 0x24, 0x00, 0x00, 0x00,
        0x08, 0x00, 0x0c, 0x00, 0x08, 0x00, 0x04, 0x00, 0x08, 0x00, 0x00, 0x00,
        0x0b, 0x00, 0x00, 0x00, 0x04, 0x00, 0x00, 0x00, 0x07, 0x00, 0x00, 0x00,
        0x64, 0x65, 0x6e, 0x73, 0x65, 0x5f, 0x32, 0x00, 0x36, 0xf6, 0xff, 0xff,
        0x04, 0x00, 0x00, 0x00, 0x0b, 0x00, 0x00, 0x00, 0x64, 0x65, 0x6e, 0x73,
        0x65, 0x5f, 0x69, 0x6e, 0x70, 0x75, 0x74, 0x00, 0x01, 0x00, 0x00, 0x00,
        0x0c, 0x00, 0x00, 0x00, 0x08, 0x00, 0x0c, 0x00, 0x04, 0x00, 0x08, 0x00,
        0x08, 0x00, 0x00, 0x00, 0x08, 0x00, 0x00, 0x00, 0x0d, 0x00, 0x00, 0x00,
        0x13, 0x00, 0x00, 0x00, 0x6d, 0x69, 0x6e, 0x5f, 0x72, 0x75, 0x6e, 0x74,
        0x69, 0x6d, 0x65, 0x5f, 0x76, 0x65, 0x72, 0x73, 0x69, 0x6f, 0x6e, 0x00,
        0x82, 0xf6, 0xff, 0xff, 0x04, 0x00, 0x00, 0x00, 0x10, 0x00, 0x00, 0x00,
        0x31, 0x2e, 0x31, 0x34, 0x2e, 0x30, 0x00, 0x00, 0x00, 0x00, 0x00, 0x00,
        0x00, 0x00, 0x00, 0x00, 0x0f, 0x00, 0x00, 0x00, 0x4d, 0x4c, 0x49, 0x52,
        0x20, 0x43, 0x6f, 0x6e, 0x76, 0x65, 0x72, 0x74, 0x65, 0x64, 0x2e, 0x00,
        0x00, 0x00, 0x0e, 0x00, 0x18, 0x00, 0x04, 0x00, 0x08, 0x00, 0x0c, 0x00,
        0x10, 0x00, 0x14, 0x00, 0x0e, 0x00, 0x00, 0x00, 0x14, 0x00, 0x00, 0x00,
        0x44, 0x00, 0x00, 0x00, 0x48, 0x00, 0x00, 0x00, 0x4c, 0x00, 0x00, 0x00,
        0x60, 0x00, 0x00, 0x00, 0x0c, 0x00, 0x00, 0x00, 0xe8, 0x09, 0x00, 0x00,
        0x60, 0x09, 0x00, 0x00, 0xc8, 0x08, 0x00, 0x00, 0xd0, 0x07, 0x00, 0x00,
        0x6c, 0x05, 0x00, 0x00, 0xb8, 0x04, 0x00, 0x00, 0x44, 0x04, 0x00, 0x00,
        0xc4, 0x03, 0x00, 0x00, 0xc8, 0x02, 0x00, 0x00, 0xbc, 0x01, 0x00, 0x00,
        0xfc, 0x00, 0x00, 0x00, 0x70, 0x00, 0x00, 0x00, 0x01, 0x00, 0x00, 0x00,
        0x00, 0x00, 0x00, 0x00, 0x01, 0x00, 0x00, 0x00, 0x0b, 0x00, 0x00, 0x00,
        0x05, 0x00, 0x00, 0x00, 0x50, 0x03, 0x00, 0x00, 0x50, 0x02, 0x00, 0x00,
        0x5c, 0x01, 0x00, 0x00, 0xa0, 0x00, 0x00, 0x00, 0x18, 0x00, 0x00, 0x00,
        0x04, 0x00, 0x00, 0x00, 0x6d, 0x61, 0x69, 0x6e, 0x00, 0x00, 0x0a, 0x00,
        0x10, 0x00, 0x04, 0x00, 0x08, 0x00, 0x0c, 0x00, 0x0a, 0x00, 0x00, 0x00,
        0x02, 0x00, 0x00, 0x00, 0x10, 0x00, 0x00, 0x00, 0x04, 0x00, 0x00, 0x00,
        0x01, 0x00, 0x00, 0x00, 0x0b, 0x00, 0x00, 0x00, 0x01, 0x00, 0x00, 0x00,
        0x0a, 0x00, 0x00, 0x00, 0xdc, 0xfc, 0xff, 0xff, 0x06, 0x00, 0x00, 0x00,
        0x00, 0x00, 0x00, 0x06, 0x02, 0x00, 0x00, 0x00, 0xc8, 0xf6, 0xff, 0xff,
        0x14, 0x00, 0x00, 0x00, 0x0c, 0x00, 0x00, 0x00, 0x24, 0x00, 0x00, 0x00,
        0x40, 0x00, 0x00, 0x00, 0x10, 0x00, 0x00, 0x00, 0x02, 0x00, 0x00, 0x00,
        0x01, 0x00, 0x00, 0x00, 0x01, 0x00, 0x00, 0x00, 0x02, 0x00, 0x00, 0x00,
        0xff, 0xff, 0xff, 0xff, 0x01, 0x00, 0x00, 0x00, 0x19, 0x00, 0x00, 0x00,
        0x53, 0x74, 0x61, 0x74, 0x65, 0x66, 0x75, 0x6c, 0x50, 0x61, 0x72, 0x74,
        0x69, 0x74, 0x69, 0x6f, 0x6e, 0x65, 0x64, 0x43, 0x61, 0x6c, 0x6c, 0x3a,
        0x30, 0x00, 0x00, 0x00, 0xac, 0xf6, 0xff, 0xff, 0x56, 0xff, 0xff, 0xff,
        0x00, 0x00, 0x00, 0x08, 0x01, 0x00, 0x00, 0x00, 0x18, 0x00, 0x00, 0x00,
        0x0c, 0x00, 0x00, 0x00, 0x04, 0x00, 0x00, 0x00, 0xc8, 0xf6, 0xff, 0xff,
        0x01, 0x00, 0x00, 0x00, 0x0a, 0x00, 0x00, 0x00, 0x03, 0x00, 0x00, 0x00,
        0x09, 0x00, 0x00, 0x00, 0x05, 0x00, 0x00, 0x00, 0x06, 0x00, 0x00, 0x00,
        0x58, 0xfd, 0xff, 0xff, 0x00, 0x00, 0x00, 0x09, 0x14, 0x00, 0x00, 0x00,
        0x0b, 0x00, 0x00, 0x00, 0x24, 0x00, 0x00, 0x00, 0x40, 0x00, 0x00, 0x00,
        0x10, 0x00, 0x00, 0x00, 0x02, 0x00, 0x00, 0x00, 0x01, 0x00, 0x00, 0x00,
        0x01, 0x00, 0x00, 0x00, 0x02, 0x00, 0x00, 0x00, 0xff, 0xff, 0xff, 0xff,
        0x01, 0x00, 0x00, 0x00, 0x1a, 0x00, 0x00, 0x00, 0x53, 0x74, 0x61, 0x74,
        0x65, 0x66, 0x75, 0x6c, 0x50, 0x61, 0x72, 0x74, 0x69, 0x74, 0x69, 0x6f,
        0x6e, 0x65, 0x64, 0x43, 0x61, 0x6c, 0x6c, 0x3a, 0x30, 0x31, 0x00, 0x00,
        0xd4, 0xf7, 0xff, 0xff, 0x08, 0x00, 0x00, 0x00, 0x0c, 0x00, 0x00, 0x00,
        0x01, 0x00, 0x00, 0x00, 0x4b, 0x95, 0xfd, 0x3b, 0x01, 0x00, 0x00, 0x00,
        0x00, 0x00, 0x00, 0x00, 0x00, 0x00, 0x00, 0x00, 0x00, 0x00, 0x0e, 0x00,
        0x18, 0x00, 0x08, 0x00, 0x0c, 0x00, 0x10, 0x00, 0x07, 0x00, 0x14, 0x00,
        0x0e, 0x00, 0x00, 0x00, 0x00, 0x00, 0x00, 0x08, 0x01, 0x00, 0x00, 0x00,
        0x1c, 0x00, 0x00, 0x00, 0x10, 0x00, 0x00, 0x00, 0x04, 0x00, 0x00, 0x00,
        0x0e, 0xff, 0xff, 0xff, 0x00, 0x00, 0x00, 0x01, 0x01, 0x00, 0x00, 0x00,
        0x09, 0x00, 0x00, 0x00, 0x03, 0x00, 0x00, 0x00, 0x08, 0x00, 0x00, 0x00,
        0x03, 0x00, 0x00, 0x00, 0x04, 0x00, 0x00, 0x00, 0x14, 0xfe, 0xff, 0xff,
        0x00, 0x00, 0x00, 0x09, 0x14, 0x00, 0x00, 0x00, 0x0a, 0x00, 0x00, 0x00,
        0x24, 0x00, 0x00, 0x00, 0x74, 0x00, 0x00, 0x00, 0x10, 0x00, 0x00, 0x00,
        0x02, 0x00, 0x00, 0x00, 0x01, 0x00, 0x00, 0x00, 0x10, 0x00, 0x00, 0x00,
        0x02, 0x00, 0x00, 0x00, 0xff, 0xff, 0xff, 0xff, 0x10, 0x00, 0x00, 0x00,
        0x4c, 0x00, 0x00, 0x00, 0x73, 0x65, 0x71, 0x75, 0x65, 0x6e, 0x74, 0x69,
        0x61, 0x6c, 0x2f, 0x64, 0x65, 0x6e, 0x73, 0x65, 0x5f, 0x31, 0x2f, 0x4d,
        0x61, 0x74, 0x4d, 0x75, 0x6c, 0x3b, 0x73, 0x65, 0x71, 0x75, 0x65, 0x6e,
        0x74, 0x69, 0x61, 0x6c, 0x2f, 0x64, 0x65, 0x6e, 0x73, 0x65, 0x5f, 0x31,
        0x2f, 0x52, 0x65, 0x6c, 0x75, 0x3b, 0x73, 0x65, 0x71, 0x75, 0x65, 0x6e,
        0x74, 0x69, 0x61, 0x6c, 0x2f, 0x64, 0x65, 0x6e, 0x73, 0x65, 0x5f, 0x31,
        0x2f, 0x42, 0x69, 0x61, 0x73, 0x41, 0x64, 0x64, 0x00, 0x00, 0x00, 0x00,
        0xc4, 0xf8, 0xff, 0xff, 0x08, 0x00, 0x00, 0x00, 0x0c, 0x00, 0x00, 0x00,
        0x01, 0x00, 0x00, 0x00, 0xa6, 0xf2, 0xea, 0x3b, 0x01, 0x00, 0x00, 0x00,
        0x80, 0xff, 0xff, 0xff, 0xff, 0xff, 0xff, 0xff, 0x00, 0x00, 0x0e, 0x00,
        0x1a, 0x00, 0x08, 0x00, 0x0c, 0x00, 0x10, 0x00, 0x07, 0x00, 0x14, 0x00,
        0x0e, 0x00, 0x00, 0x00, 0x00, 0x00, 0x00, 0x08, 0x01, 0x00, 0x00, 0x00,
        0x24, 0x00, 0x00, 0x00, 0x18, 0x00, 0x00, 0x00, 0x0c, 0x00, 0x00, 0x00,
        0x00, 0x00, 0x06, 0x00, 0x08, 0x00, 0x07, 0x00, 0x06, 0x00, 0x00, 0x00,
        0x00, 0x00, 0x00, 0x01, 0x01, 0x00, 0x00, 0x00, 0x08, 0x00, 0x00, 0x00,
        0x03, 0x00, 0x00, 0x00, 0x07, 0x00, 0x00, 0x00, 0x01, 0x00, 0x00, 0x00,
        0x02, 0x00, 0x00, 0x00, 0x28, 0xff, 0xff, 0xff, 0x09, 0x00, 0x00, 0x00,
        0x00, 0x00, 0x00, 0x09, 0x04, 0x00, 0x00, 0x00, 0x1c, 0xff, 0xff, 0xff,
        0x00, 0x00, 0x00, 0x09, 0x14, 0x00, 0x00, 0x00, 0x09, 0x00, 0x00, 0x00,
        0x24, 0x00, 0x00, 0x00, 0x6c, 0x00, 0x00, 0x00, 0x10, 0x00, 0x00, 0x00,
        0x02, 0x00, 0x00, 0x00, 0x01, 0x00, 0x00, 0x00, 0x20, 0x00, 0x00, 0x00,
        0x02, 0x00, 0x00, 0x00, 0xff, 0xff, 0xff, 0xff, 0x20, 0x00, 0x00, 0x00,
        0x46, 0x00, 0x00, 0x00, 0x73, 0x65, 0x71, 0x75, 0x65, 0x6e, 0x74, 0x69,
        0x61, 0x6c, 0x2f, 0x64, 0x65, 0x6e, 0x73, 0x65, 0x2f, 0x4d, 0x61, 0x74,
        0x4d, 0x75, 0x6c, 0x3b, 0x73, 0x65, 0x71, 0x75, 0x65, 0x6e, 0x74, 0x69,
        0x61, 0x6c, 0x2f, 0x64, 0x65, 0x6e, 0x73, 0x65, 0x2f, 0x52, 0x65, 0x6c,
        0x75, 0x3b, 0x73, 0x65, 0x71, 0x75, 0x65, 0x6e, 0x74, 0x69, 0x61, 0x6c,
        0x2f, 0x64, 0x65, 0x6e, 0x73, 0x65, 0x2f, 0x42, 0x69, 0x61, 0x73, 0x41,
        0x64, 0x64, 0x00, 0x00, 0xc4, 0xf9, 0xff, 0xff, 0x08, 0x00, 0x00, 0x00,
        0x0c, 0x00, 0x00, 0x00, 0x01, 0x00, 0x00, 0x00, 0xce, 0xfd, 0xcc, 0x3b,
        0x01, 0x00, 0x00, 0x00, 0x80, 0xff, 0xff, 0xff, 0xff, 0xff, 0xff, 0xff,
        0x00, 0x00, 0x0a, 0x00, 0x0c, 0x00, 0x00, 0x00, 0x04, 0x00, 0x08, 0x00,
        0x0a, 0x00, 0x00, 0x00, 0x10, 0x00, 0x00, 0x00, 0x04, 0x00, 0x00, 0x00,
        0x01, 0x00, 0x00, 0x00, 0x07, 0x00, 0x00, 0x00, 0x01, 0x00, 0x00, 0x00,
        0x00, 0x00, 0x00, 0x00, 0x0c, 0x00, 0x10, 0x00, 0x0b, 0x00, 0x00, 0x00,
        0x0c, 0x00, 0x04, 0x00, 0x0c, 0x00, 0x00, 0x00, 0x72, 0x00, 0x00, 0x00,
        0x00, 0x00, 0x00, 0x72, 0x01, 0x00, 0x00, 0x00, 0x14, 0x00, 0x1c, 0x00,
        0x08, 0x00, 0x07, 0x00, 0x0c, 0x00, 0x10, 0x00, 0x14, 0x00, 0x00, 0x00,
        0x00, 0x00, 0x18, 0x00, 0x14, 0x00, 0x00, 0x00, 0x00, 0x00, 0x00, 0x09,
        0x14, 0x00, 0x00, 0x00, 0x08, 0x00, 0x00, 0x00, 0x24, 0x00, 0x00, 0x00,
        0x34, 0x00, 0x00, 0x00, 0x10, 0x00, 0x00, 0x00, 0x02, 0x00, 0x00, 0x00,
        0x01, 0x00, 0x00, 0x00, 0x01, 0x00, 0x00, 0x00, 0x02, 0x00, 0x00, 0x00,
        0xff, 0xff, 0xff, 0xff, 0x01, 0x00, 0x00, 0x00, 0x0c, 0x00, 0x00, 0x00,
        0x74, 0x66, 0x6c, 0x2e, 0x71, 0x75, 0x61, 0x6e, 0x74, 0x69, 0x7a, 0x65,
        0x00, 0x00, 0x00, 0x00, 0x84, 0xfa, 0xff, 0xff, 0x08, 0x00, 0x00, 0x00,
        0x0c, 0x00, 0x00, 0x00, 0x01, 0x00, 0x00, 0x00, 0xc9, 0x80, 0xc9, 0x3c,
        0x01, 0x00, 0x00, 0x00, 0x80, 0xff, 0xff, 0xff, 0xff, 0xff, 0xff, 0xff,
        0x00, 0x00, 0x00, 0x00, 0x2a, 0xfb, 0xff, 0xff, 0x04, 0x00, 0x00, 0x00,
        0x04, 0x00, 0x00, 0x00, 0x63, 0xdc, 0xff, 0xff, 0x06, 0xfb, 0xff, 0xff,
        0x00, 0x00, 0x00, 0x02, 0x10, 0x00, 0x00, 0x00, 0x07, 0x00, 0x00, 0x00,
        0x10, 0x00, 0x00, 0x00, 0x20, 0x00, 0x00, 0x00, 0x01, 0x00, 0x00, 0x00,
        0x01, 0x00, 0x00, 0x00, 0x0c, 0x00, 0x00, 0x00, 0x64, 0x65, 0x6e, 0x73,
        0x65, 0x5f, 0x32, 0x2f, 0x62, 0x69, 0x61, 0x73, 0x00, 0x00, 0x00, 0x00,
        0xec, 0xfa, 0xff, 0xff, 0x08, 0x00, 0x00, 0x00, 0x0c, 0x00, 0x00, 0x00,
        0x01, 0x00, 0x00, 0x00, 0x3a, 0xf1, 0x76, 0x38, 0x01, 0x00, 0x00, 0x00,
        0x00, 0x00, 0x00, 0x00, 0x00, 0x00, 0x00, 0x00, 0x8e, 0xfb, 0xff, 0xff,
        0x04, 0x00, 0x00, 0x00, 0x10, 0x00, 0x00, 0x00, 0x1b, 0x0f, 0x7f, 0x3a,
        0x96, 0xca, 0xd8, 0xec, 0x33, 0x69, 0x23, 0x27, 0xae, 0x4e, 0x13, 0x00,
        0x76, 0xfb, 0xff, 0xff, 0x00, 0x00, 0x00, 0x09, 0x10, 0x00, 0x00, 0x00,
        0x06, 0x00, 0x00, 0x00, 0x14, 0x00, 0x00, 0x00, 0x30, 0x00, 0x00, 0x00,
        0x02, 0x00, 0x00, 0x00, 0x01, 0x00, 0x00, 0x00, 0x10, 0x00, 0x00, 0x00,
        0x19, 0x00, 0x00, 0x00, 0x73, 0x65, 0x71, 0x75, 0x65, 0x6e, 0x74, 0x69,
        0x61, 0x6c, 0x2f, 0x64, 0x65, 0x6e, 0x73, 0x65, 0x5f, 0x32, 0x2f, 0x4d,
        0x61, 0x74, 0x4d, 0x75, 0x6c, 0x00, 0x00, 0x00, 0x6c, 0xfb, 0xff, 0xff,
        0x08, 0x00, 0x00, 0x00, 0x0c, 0x00, 0x00, 0x00, 0x01, 0x00, 0x00, 0x00,
        0xdb, 0x88, 0x06, 0x3c, 0x01, 0x00, 0x00, 0x00, 0x00, 0x00, 0x00, 0x00,
        0x00, 0x00, 0x00, 0x00, 0x0e, 0xfc, 0xff, 0xff, 0x04, 0x00, 0x00, 0x00,
        0x40, 0x00, 0x00, 0x00, 0x00, 0x00, 0x00, 0x00, 0xc9, 0xfd, 0xff, 0xff,
        0xb1, 0x1f, 0x00, 0x00, 0x41, 0xdd, 0xff, 0xff, 0x2e, 0x09, 0x00, 0x00,
        0xe2, 0x0e, 0x00, 0x00, 0x00, 0x00, 0x00, 0x00, 0x00, 0x00, 0x00, 0x00,
        0x00, 0x00, 0x00, 0x00, 0xd4, 0xd2, 0xff, 0xff, 0xbc, 0xfe, 0xff, 0xff,
        0xcf, 0xff, 0xff, 0xff, 0x30, 0x0c, 0x00, 0x00, 0x8d, 0x10, 0x00, 0x00,
        0x9a, 0xde, 0xff, 0xff, 0x6f, 0x01, 0x00, 0x00, 0x26, 0xfc, 0xff, 0xff,
        0x00, 0x00, 0x00, 0x02, 0x10, 0x00, 0x00, 0x00, 0x05, 0x00, 0x00, 0x00,
        0x10, 0x00, 0x00, 0x00, 0x20, 0x00, 0x00, 0x00, 0x01, 0x00, 0x00, 0x00,
        0x10, 0x00, 0x00, 0x00, 0x0c, 0x00, 0x00, 0x00, 0x64, 0x65, 0x6e, 0x73,
        0x65, 0x5f, 0x31, 0x2f, 0x62, 0x69, 0x61, 0x73, 0x00, 0x00, 0x00, 0x00,
        0x0c, 0xfc, 0xff, 0xff, 0x08, 0x00, 0x00, 0x00, 0x0c, 0x00, 0x00, 0x00,
        0x01, 0x00, 0x00, 0x00, 0x29, 0x7c, 0x86, 0x38, 0x01, 0x00, 0x00, 0x00,
        0x00, 0x00, 0x00, 0x00, 0x00, 0x00, 0x00, 0x00, 0xae, 0xfc, 0xff, 0xff,
        0x04, 0x00, 0x00, 0x00, 0x00, 0x02, 0x00, 0x00, 0x0e, 0x01, 0xe5, 0xff,
        0xec, 0x07, 0xfc, 0x0c, 0x0c, 0x13, 0xf6, 0x06, 0x0d, 0xe7, 0x15, 0x07,
        0x1c, 0x1e, 0x10, 0x0b, 0x06, 0xeb, 0xe5, 0x0a, 0x0f, 0x04, 0xfc, 0x18,
        0xf1, 0xe4, 0xde, 0x1e, 0x11, 0xfe, 0xed, 0x06, 0x00, 0xeb, 0x17, 0x09,
        0xde, 0xf4, 0xf3, 0x01, 0xe7, 0x1e, 0xfc, 0xfd, 0xf0, 0xee, 0xe3, 0xdf,
        0xec, 0xe8, 0xf7, 0x03, 0x11, 0xde, 0xe9, 0xe5, 0xfa, 0x00, 0xf9, 0x14,
        0x1c, 0xf1, 0x1f, 0xf6, 0xf4, 0x1d, 0xe2, 0xc7, 0x20, 0xe8, 0xf8, 0x04,
        0x18, 0xc9, 0x32, 0xde, 0xfd, 0xf6, 0x0b, 0xf5, 0x13, 0x24, 0xd3, 0xcb,
        0x19, 0x12, 0x19, 0xbb, 0x26, 0x07, 0x11, 0xd2, 0xff, 0x25, 0x0d, 0xfb,
        0x0d, 0xe2, 0xdf, 0x30, 0x09, 0xfe, 0xff, 0x12, 0xff, 0x27, 0xfc, 0xf4,
        0xe1, 0x0a, 0x10, 0x7a, 0xe6, 0x02, 0x21, 0x20, 0x17, 0xff, 0x12, 0xe2,
        0xfa, 0x4c, 0x1d, 0x04, 0x20, 0x07, 0xec, 0xc8, 0xe5, 0x21, 0x0b, 0xe5,
        0x0b, 0xe5, 0xff, 0x03, 0xf3, 0xec, 0x0b, 0xe2, 0x16, 0x10, 0x02, 0xe8,
        0x0a, 0xa8, 0xff, 0x14, 0xde, 0x03, 0x21, 0x22, 0x12, 0xe6, 0xa8, 0xe7,
        0x10, 0x1c, 0x0e, 0x23, 0x03, 0x05, 0x14, 0xf1, 0xf7, 0xf9, 0x0f, 0x22,
        0xef, 0xec, 0x18, 0xec, 0xe4, 0x14, 0xe0, 0x81, 0xf0, 0x2d, 0x1d, 0x06,
        0xea, 0x18, 0x1e, 0x28, 0x14, 0xb1, 0x32, 0xff, 0x0f, 0x14, 0x22, 0x10,
        0xfa, 0x1b, 0x1a, 0xed, 0xed, 0xf6, 0x07, 0xf5, 0xfc, 0x03, 0xe9, 0x1a,
        0x19, 0x0b, 0x0b, 0xe3, 0xe7, 0xe8, 0xf3, 0xe2, 0xf1, 0x00, 0x1c, 0xe8,
        0xe0, 0x07, 0xf4, 0x09, 0xf1, 0x15, 0xfe, 0xea, 0xef, 0xe6, 0x0e, 0x1c,
        0x12, 0x01, 0x03, 0x14, 0xf1, 0x14, 0x0c, 0x02, 0x15, 0xec, 0x0c, 0xdf,
        0xfc, 0x07, 0xeb, 0xf3, 0xed, 0xe7, 0xf7, 0x14, 0xe7, 0xfb, 0x02, 0x05,
        0xfc, 0x13, 0xe3, 0xfb, 0xdf, 0x0b, 0x0d, 0xe9, 0x1c, 0x01, 0xea, 0x16,
        0xed, 0xef, 0xed, 0xe7, 0xfc, 0x15, 0x18, 0x0e, 0x17, 0xe6, 0x1a, 0x07,
        0x05, 0x15, 0x14, 0xef, 0xed, 0x04, 0x00, 0xf9, 0xf9, 0xfa, 0x00, 0xfe,
        0xf2, 0x1c, 0xf5, 0x18, 0xeb, 0x0a, 0x03, 0xe5, 0x0f, 0x15, 0xed, 0xe2,
        0xe4, 0x0b, 0xe5, 0x63, 0x05, 0x1b, 0x34, 0xf7, 0xea, 0xf5, 0xea, 0xff,
        0xd2, 0x45, 0x0b, 0x10, 0x0f, 0x02, 0xe7, 0xfd, 0x02, 0xfe, 0xf6, 0xd7,
        0x1a, 0x0b, 0x17, 0xe2, 0x22, 0xe3, 0x10, 0xf3, 0xf9, 0xde, 0xe8, 0xf6,
        0x0f, 0x0d, 0xd6, 0x11, 0xfd, 0x1b, 0x06, 0x18, 0xfa, 0xf7, 0xf3, 0xee,
        0xf7, 0x19, 0xee, 0xe5, 0xf1, 0xe0, 0x12, 0xe6, 0xe6, 0x04, 0x14, 0x10,
        0xf8, 0xe1, 0xe2, 0xf2, 0x22, 0x0a, 0x19, 0x1f, 0xf1, 0x0d, 0xe4, 0x04,
        0xed, 0x15, 0x0c, 0xf4, 0xf1, 0x07, 0x06, 0x11, 0x1a, 0x17, 0x03, 0xd2,
        0xed, 0x11, 0x13, 0xe1, 0x1f, 0x1c, 0x05, 0x1e, 0x1a, 0xe0, 0xf9, 0xfa,
        0xe3, 0x06, 0x1d, 0xee, 0x1c, 0xb2, 0xfe, 0xf5, 0xe5, 0xe9, 0x25, 0x2e,
        0x14, 0x13, 0xc4, 0x16, 0xee, 0x18, 0xee, 0x0e, 0x08, 0xe8, 0xfd, 0xe1,
        0x20, 0x09, 0x05, 0x00, 0xf3, 0xe1, 0x14, 0xeb, 0x07, 0xdf, 0x14, 0xf2,
        0x02, 0x20, 0xcb, 0xd4, 0x13, 0xf2, 0x05, 0xeb, 0x33, 0xfa, 0x06, 0xe0,
        0x04, 0xf7, 0xe8, 0x19, 0x04, 0xed, 0xeb, 0x14, 0x00, 0xe5, 0x22, 0xf6,
        0xe5, 0xff, 0xed, 0xe8, 0x0b, 0x18, 0xed, 0x66, 0x0a, 0x14, 0x08, 0x2b,
        0xeb, 0x02, 0xeb, 0x1b, 0xf9, 0x35, 0xf6, 0x30, 0xe3, 0xfa, 0xef, 0x15,
        0xea, 0x14, 0x1b, 0xe3, 0x15, 0xed, 0xeb, 0x0e, 0xf5, 0xea, 0xea, 0x09,
        0x07, 0xfa, 0xe4, 0x89, 0x12, 0x0d, 0xec, 0xf8, 0xe8, 0xf6, 0x14, 0x1b,
        0xee, 0xcc, 0x23, 0xec, 0x86, 0xfe, 0xff, 0xff, 0x00, 0x00, 0x00, 0x09,
        0x10, 0x00, 0x00, 0x00, 0x04, 0x00, 0x00, 0x00, 0x14, 0x00, 0x00, 0x00,
        0x30, 0x00, 0x00, 0x00, 0x02, 0x00, 0x00, 0x00, 0x10, 0x00, 0x00, 0x00,
        0x20, 0x00, 0x00, 0x00, 0x19, 0x00, 0x00, 0x00, 0x73, 0x65, 0x71, 0x75,
        0x65, 0x6e, 0x74, 0x69, 0x61, 0x6c, 0x2f, 0x64, 0x65, 0x6e, 0x73, 0x65,
        0x5f, 0x31, 0x2f, 0x4d, 0x61, 0x74, 0x4d, 0x75, 0x6c, 0x00, 0x00, 0x00,
        0x7c, 0xfe, 0xff, 0xff, 0x08, 0x00, 0x00, 0x00, 0x0c, 0x00, 0x00, 0x00,
        0x01, 0x00, 0x00, 0x00, 0x03, 0xf3, 0x27, 0x3c, 0x01, 0x00, 0x00, 0x00,
        0x00, 0x00, 0x00, 0x00, 0x00, 0x00, 0x00, 0x00, 0x00, 0x00, 0x00, 0x00,
        0x22, 0xff, 0xff, 0xff, 0x04, 0x00, 0x00, 0x00, 0x80, 0x00, 0x00, 0x00,
        0x00, 0x00, 0x00, 0x00, 0x41, 0xf9, 0xff, 0xff, 0x6c, 0x0b, 0x00, 0x00,
        0xf8, 0xfa, 0xff, 0xff, 0xd0, 0xff, 0xff, 0xff, 0x00, 0x00, 0x00, 0x00,
        0x00, 0x00, 0x00, 0x00, 0xbf, 0xdf, 0xff, 0xff, 0x00, 0x00, 0x00, 0x00,
        0x00, 0x00, 0x00, 0x00, 0x24, 0xfa, 0xff, 0xff, 0x00, 0x00, 0x00, 0x00,
        0x00, 0x00, 0x00, 0x00, 0xa1, 0xe1, 0xff, 0xff, 0x99, 0x15, 0x00, 0x00,
        0x00, 0x00, 0x00, 0x00, 0x00, 0x00, 0x00, 0x00, 0x00, 0x00, 0x00, 0x00,
        0x00, 0x00, 0x00, 0x00, 0x30, 0xe1, 0xff, 0xff, 0xf3, 0xff, 0xff, 0xff,
        0x1a, 0x00, 0x00, 0x00, 0x19, 0xda, 0xff, 0xff, 0x85, 0xe7, 0xff, 0xff,
        0x00, 0x00, 0x00, 0x00, 0x00, 0x00, 0x00, 0x00, 0x17, 0x0a, 0x00, 0x00,
        0x34, 0x07, 0x00, 0x00, 0x43, 0x25, 0x00, 0x00, 0xd8, 0xe1, 0xff, 0xff,
        0x09, 0x00, 0x00, 0x00, 0x0c, 0xec, 0xff, 0xff, 0x7a, 0xff, 0xff, 0xff,
        0x00, 0x00, 0x00, 0x02, 0x10, 0x00, 0x00, 0x00, 0x03, 0x00, 0x00, 0x00,
        0x10, 0x00, 0x00, 0x00, 0x1c, 0x00, 0x00, 0x00, 0x01, 0x00, 0x00, 0x00,
        0x20, 0x00, 0x00, 0x00, 0x0a, 0x00, 0x00, 0x00, 0x64, 0x65, 0x6e, 0x73,
        0x65, 0x2f, 0x62, 0x69, 0x61, 0x73, 0x00, 0x00, 0x5c, 0xff, 0xff, 0xff,
        0x08, 0x00, 0x00, 0x00, 0x0c, 0x00, 0x00, 0x00, 0x01, 0x00, 0x00, 0x00,
        0x79, 0x22, 0xa7, 0x38, 0x01, 0x00, 0x00, 0x00, 0x00, 0x00, 0x00, 0x00,
        0x00, 0x00, 0x00, 0x00, 0x00, 0x00, 0x06, 0x00, 0x08, 0x00, 0x04, 0x00,
        0x06, 0x00, 0x00, 0x00, 0x04, 0x00, 0x00, 0x00, 0x20, 0x00, 0x00, 0x00,
        0xfc, 0x07, 0xf4, 0x4f, 0x00, 0x85, 0xd5, 0x46, 0xf5, 0x81, 0x05, 0xf3,
        0xc4, 0x49, 0xf2, 0xf9, 0xf2, 0x93, 0x8e, 0x26, 0xf9, 0x43, 0x75, 0x5e,
        0xbc, 0xac, 0xed, 0xa8, 0x19, 0x26, 0x11, 0x3d, 0x00, 0x00, 0x0e, 0x00,
        0x18, 0x00, 0x08, 0x00, 0x07, 0x00, 0x0c, 0x00, 0x10, 0x00, 0x14, 0x00,
        0x0e, 0x00, 0x00, 0x00, 0x00, 0x00, 0x00, 0x09, 0x10, 0x00, 0x00, 0x00,
        0x02, 0x00, 0x00, 0x00, 0x14, 0x00, 0x00, 0x00, 0x38, 0x00, 0x00, 0x00,
        0x02, 0x00, 0x00, 0x00, 0x20, 0x00, 0x00, 0x00, 0x01, 0x00, 0x00, 0x00,
        0x17, 0x00, 0x00, 0x00, 0x73, 0x65, 0x71, 0x75, 0x65, 0x6e, 0x74, 0x69,
        0x61, 0x6c, 0x2f, 0x64, 0x65, 0x6e, 0x73, 0x65, 0x2f, 0x4d, 0x61, 0x74,
        0x4d, 0x75, 0x6c, 0x00, 0x0c, 0x00, 0x0c, 0x00, 0x00, 0x00, 0x00, 0x00,
        0x04, 0x00, 0x08, 0x00, 0x0c, 0x00, 0x00, 0x00, 0x08, 0x00, 0x00, 0x00,
        0x0c, 0x00, 0x00, 0x00, 0x01, 0x00, 0x00, 0x00, 0x2a, 0x56, 0x54, 0x3b,
        0x01, 0x00, 0x00, 0x00, 0x00, 0x00, 0x00, 0x00, 0x00, 0x00, 0x00, 0x00,
        0x00, 0x00, 0x00, 0x00, 0x14, 0x00, 0x18, 0x00, 0x04, 0x00, 0x00, 0x00,
        0x08, 0x00, 0x0c, 0x00, 0x10, 0x00, 0x00, 0x00, 0x00, 0x00, 0x14, 0x00,
        0x14, 0x00, 0x00, 0x00, 0x14, 0x00, 0x00, 0x00, 0x01, 0x00, 0x00, 0x00,
        0x24, 0x00, 0x00, 0x00, 0x44, 0x00, 0x00, 0x00, 0x10, 0x00, 0x00, 0x00,
        0x02, 0x00, 0x00, 0x00, 0x01, 0x00, 0x00, 0x00, 0x01, 0x00, 0x00, 0x00,
        0x02, 0x00, 0x00, 0x00, 0xff, 0xff, 0xff, 0xff, 0x01, 0x00, 0x00, 0x00,
        0x1d, 0x00, 0x00, 0x00, 0x73, 0x65, 0x72, 0x76, 0x69, 0x6e, 0x67, 0x5f,
        0x64, 0x65, 0x66, 0x61, 0x75, 0x6c, 0x74, 0x5f, 0x64, 0x65, 0x6e, 0x73,
        0x65, 0x5f, 0x69, 0x6e, 0x70, 0x75, 0x74, 0x3a, 0x30, 0x00, 0x00, 0x00,
        0xfc, 0xff, 0xff, 0xff, 0x04, 0x00, 0x04, 0x00, 0x04, 0x00, 0x00, 0x00
};
const int sin_model_len = 3048;
